#ifndef MODEL_APENA_H
#define MODEL_APENA_H



unsigned int model_apena_len = 4232;
unsigned char model_apena[] = {
 0x1c, 0x00, 0x00, 0x00, 0x54, 0x46, 0x4c, 0x33, 0x14, 0x00, 0x20, 0x00,
  0x1c, 0x00, 0x18, 0x00, 0x14, 0x00, 0x10, 0x00, 0x0c, 0x00, 0x00, 0x00,
  0x08, 0x00, 0x04, 0x00, 0x14, 0x00, 0x00, 0x00, 0x1c, 0x00, 0x00, 0x00,
  0x8c, 0x00, 0x00, 0x00, 0xe4, 0x00, 0x00, 0x00, 0x90, 0x0a, 0x00, 0x00,
  0xa0, 0x0a, 0x00, 0x00, 0x24, 0x10, 0x00, 0x00, 0x03, 0x00, 0x00, 0x00,
  0x01, 0x00, 0x00, 0x00, 0x04, 0x00, 0x00, 0x00, 0x22, 0xf5, 0xff, 0xff,
  0x0c, 0x00, 0x00, 0x00, 0x1c, 0x00, 0x00, 0x00, 0x3c, 0x00, 0x00, 0x00,
  0x0f, 0x00, 0x00, 0x00, 0x73, 0x65, 0x72, 0x76, 0x69, 0x6e, 0x67, 0x5f,
  0x64, 0x65, 0x66, 0x61, 0x75, 0x6c, 0x74, 0x00, 0x01, 0x00, 0x00, 0x00,
  0x04, 0x00, 0x00, 0x00, 0x90, 0xff, 0xff, 0xff, 0x0a, 0x00, 0x00, 0x00,
  0x04, 0x00, 0x00, 0x00, 0x08, 0x00, 0x00, 0x00, 0x6f, 0x75, 0x74, 0x70,
  0x75, 0x74, 0x5f, 0x30, 0x00, 0x00, 0x00, 0x00, 0x01, 0x00, 0x00, 0x00,
  0x04, 0x00, 0x00, 0x00, 0x12, 0xf6, 0xff, 0xff, 0x04, 0x00, 0x00, 0x00,
  0x0d, 0x00, 0x00, 0x00, 0x69, 0x6e, 0x70, 0x75, 0x74, 0x5f, 0x6c, 0x61,
  0x79, 0x65, 0x72, 0x5f, 0x31, 0x00, 0x00, 0x00, 0x02, 0x00, 0x00, 0x00,
  0x34, 0x00, 0x00, 0x00, 0x04, 0x00, 0x00, 0x00, 0xdc, 0xff, 0xff, 0xff,
  0x0d, 0x00, 0x00, 0x00, 0x04, 0x00, 0x00, 0x00, 0x13, 0x00, 0x00, 0x00,
  0x43, 0x4f, 0x4e, 0x56, 0x45, 0x52, 0x53, 0x49, 0x4f, 0x4e, 0x5f, 0x4d,
  0x45, 0x54, 0x41, 0x44, 0x41, 0x54, 0x41, 0x00, 0x08, 0x00, 0x0c, 0x00,
  0x08, 0x00, 0x04, 0x00, 0x08, 0x00, 0x00, 0x00, 0x0c, 0x00, 0x00, 0x00,
  0x04, 0x00, 0x00, 0x00, 0x13, 0x00, 0x00, 0x00, 0x6d, 0x69, 0x6e, 0x5f,
  0x72, 0x75, 0x6e, 0x74, 0x69, 0x6d, 0x65, 0x5f, 0x76, 0x65, 0x72, 0x73,
  0x69, 0x6f, 0x6e, 0x00, 0x0e, 0x00, 0x00, 0x00, 0xa8, 0x09, 0x00, 0x00,
  0xa0, 0x09, 0x00, 0x00, 0x70, 0x09, 0x00, 0x00, 0x58, 0x07, 0x00, 0x00,
  0x44, 0x07, 0x00, 0x00, 0x14, 0x07, 0x00, 0x00, 0xc4, 0x06, 0x00, 0x00,
  0xb4, 0x00, 0x00, 0x00, 0xac, 0x00, 0x00, 0x00, 0xa4, 0x00, 0x00, 0x00,
  0x9c, 0x00, 0x00, 0x00, 0x94, 0x00, 0x00, 0x00, 0x74, 0x00, 0x00, 0x00,
  0x04, 0x00, 0x00, 0x00, 0xc6, 0xf6, 0xff, 0xff, 0x04, 0x00, 0x00, 0x00,
  0x60, 0x00, 0x00, 0x00, 0x10, 0x00, 0x00, 0x00, 0x00, 0x00, 0x00, 0x00,
  0x08, 0x00, 0x0e, 0x00, 0x08, 0x00, 0x04, 0x00, 0x08, 0x00, 0x00, 0x00,
  0x10, 0x00, 0x00, 0x00, 0x24, 0x00, 0x00, 0x00, 0x00, 0x00, 0x06, 0x00,
  0x08, 0x00, 0x04, 0x00, 0x06, 0x00, 0x00, 0x00, 0x04, 0x00, 0x00, 0x00,
  0x00, 0x00, 0x00, 0x00, 0x0c, 0x00, 0x18, 0x00, 0x14, 0x00, 0x10, 0x00,
  0x0c, 0x00, 0x04, 0x00, 0x0c, 0x00, 0x00, 0x00, 0x81, 0x73, 0x06, 0x5b,
  0xc3, 0x35, 0xb3, 0x65, 0x02, 0x00, 0x00, 0x00, 0x02, 0x00, 0x00, 0x00,
  0x04, 0x00, 0x00, 0x00, 0x06, 0x00, 0x00, 0x00, 0x32, 0x2e, 0x31, 0x37,
  0x2e, 0x30, 0x00, 0x00, 0x32, 0xf7, 0xff, 0xff, 0x04, 0x00, 0x00, 0x00,
  0x10, 0x00, 0x00, 0x00, 0x31, 0x2e, 0x31, 0x34, 0x2e, 0x30, 0x00, 0x00,
  0x00, 0x00, 0x00, 0x00, 0x00, 0x00, 0x00, 0x00, 0xb0, 0xf1, 0xff, 0xff,
  0xb4, 0xf1, 0xff, 0xff, 0xb8, 0xf1, 0xff, 0xff, 0xbc, 0xf1, 0xff, 0xff,
  0x5e, 0xf7, 0xff, 0xff, 0x04, 0x00, 0x00, 0x00, 0x00, 0x06, 0x00, 0x00,
  0x01, 0x27, 0xb4, 0xbe, 0x38, 0xdb, 0x8a, 0x3e, 0xc0, 0xa2, 0xd4, 0x3b,
  0x20, 0x87, 0x32, 0x3c, 0xfc, 0x3b, 0x10, 0x3e, 0xf2, 0x1e, 0x63, 0xbe,
  0x1c, 0xf1, 0xbb, 0x3d, 0xee, 0x9a, 0xc3, 0xbe, 0xbd, 0x87, 0x7b, 0xbe,
  0x30, 0x5f, 0xa1, 0x3e, 0xe2, 0x6b, 0xc0, 0xbe, 0xc2, 0x51, 0xc4, 0x3e,
  0xb8, 0x68, 0xdd, 0x3d, 0xc0, 0xc4, 0x38, 0x3e, 0x86, 0x24, 0x4e, 0xbe,
  0xfd, 0xa1, 0x8a, 0xbe, 0xd8, 0x17, 0x4f, 0xbe, 0x3c, 0xac, 0xe2, 0xbd,
  0x50, 0x6c, 0x82, 0xbe, 0xa8, 0x32, 0xd2, 0x3d, 0xd0, 0x28, 0xf2, 0x3d,
  0x10, 0x83, 0xf6, 0xbd, 0x30, 0xb0, 0xad, 0xbe, 0x60, 0x59, 0x4d, 0xbd,
  0x9c, 0xd8, 0x99, 0xbe, 0x6b, 0xa1, 0xc1, 0xbe, 0x4c, 0x41, 0x63, 0x3e,
  0xf3, 0x60, 0x73, 0xbe, 0x78, 0x0d, 0xb8, 0x3e, 0x14, 0x89, 0x84, 0x3e,
  0x78, 0x2c, 0x12, 0x3e, 0x27, 0x92, 0x26, 0xbe, 0x1f, 0x70, 0x5a, 0xbe,
  0xf0, 0x14, 0xea, 0xbd, 0x10, 0xa8, 0x03, 0xbd, 0x48, 0x29, 0x07, 0xbe,
  0x54, 0x8b, 0xb7, 0x3e, 0xc8, 0x33, 0x56, 0x3e, 0x00, 0x66, 0x84, 0x3b,
  0x10, 0x11, 0x9c, 0xbd, 0x4c, 0x52, 0xaa, 0xbd, 0xbd, 0x87, 0x93, 0xbe,
  0xc0, 0x1f, 0xbc, 0xbb, 0x30, 0x81, 0x3f, 0xbd, 0x50, 0x62, 0x9f, 0xbd,
  0x82, 0xaa, 0xa1, 0xbe, 0xeb, 0xc8, 0x0c, 0xbe, 0xd3, 0x6e, 0x12, 0xbe,
  0xe0, 0x11, 0x52, 0xbc, 0xc8, 0x7d, 0x83, 0x3e, 0x8c, 0x0d, 0xc0, 0xbd,
  0xfc, 0x6e, 0xb1, 0x3d, 0x30, 0x90, 0xaf, 0xbd, 0x34, 0x5f, 0x5a, 0x3e,
  0x98, 0xd1, 0x97, 0xbe, 0xdd, 0x55, 0xab, 0xbe, 0xd4, 0x10, 0x9b, 0xbd,
  0x80, 0xae, 0x48, 0xbb, 0xf8, 0x7e, 0x90, 0xbd, 0xe0, 0xa6, 0x8f, 0xbe,
  0x87, 0x6d, 0x3d, 0xbe, 0x94, 0xe9, 0x9e, 0xbd, 0x3c, 0xae, 0xb5, 0xbe,
  0xd4, 0xcf, 0x97, 0xbe, 0x2e, 0x11, 0x8f, 0x3e, 0xb8, 0x89, 0x55, 0x3d,
  0xe0, 0xf0, 0xe1, 0xbd, 0x08, 0x09, 0x9f, 0x3e, 0xef, 0x73, 0x2f, 0xbe,
  0xa4, 0xf1, 0x2f, 0x3e, 0xa1, 0xd2, 0x5d, 0xbe, 0x53, 0xcc, 0x49, 0xbe,
  0xfc, 0x5b, 0x8a, 0xbd, 0x20, 0x58, 0xeb, 0xbc, 0x0c, 0x85, 0xb8, 0x3e,
  0x94, 0x15, 0xe2, 0xbd, 0x90, 0x6a, 0xd2, 0xbd, 0x38, 0xfb, 0x8b, 0x3d,
  0x00, 0x4e, 0xdd, 0x3c, 0xb4, 0xe9, 0x99, 0x3d, 0x10, 0xee, 0x7c, 0x3e,
  0xc0, 0xb3, 0x42, 0x3c, 0xab, 0x7b, 0xa4, 0xbe, 0x94, 0xc7, 0x92, 0x3e,
  0x0c, 0xa5, 0x52, 0x3e, 0xec, 0x29, 0xa2, 0xbd, 0x0a, 0xc4, 0xae, 0x3e,
  0x62, 0x91, 0xa9, 0x3e, 0xcb, 0x45, 0x17, 0xbe, 0x28, 0x74, 0x40, 0x3e,
  0x05, 0x62, 0x40, 0xbe, 0x50, 0x5a, 0x05, 0xbe, 0x44, 0xf1, 0xee, 0xbd,
  0xe8, 0x67, 0x2a, 0x3e, 0x48, 0x8b, 0x6b, 0x3e, 0xa4, 0x10, 0xb2, 0x3e,
  0x94, 0x3e, 0xe4, 0xbd, 0xc4, 0xe1, 0x89, 0xbb, 0x41, 0x13, 0x6c, 0x3e,
  0x37, 0xfb, 0x00, 0xbe, 0x79, 0x14, 0x72, 0x3d, 0xa6, 0xe4, 0xa6, 0x3e,
  0xb7, 0xa0, 0x59, 0x3e, 0xed, 0x5a, 0x0d, 0xbe, 0x66, 0x37, 0x03, 0x3e,
  0xc4, 0x95, 0xc3, 0xbe, 0xb9, 0xd2, 0x80, 0x3e, 0x4f, 0xb4, 0xb8, 0xbe,
  0xcf, 0xb8, 0xad, 0x3d, 0xae, 0xfd, 0x5b, 0x3e, 0x0a, 0x39, 0x22, 0xbd,
  0x6e, 0xa2, 0x27, 0xbd, 0x5a, 0xe4, 0xff, 0x3d, 0x9e, 0xf2, 0x99, 0x3e,
  0x8a, 0x33, 0x2e, 0x3e, 0x2a, 0xe9, 0x9d, 0x3e, 0x48, 0xb9, 0xc6, 0xbe,
  0xd6, 0x68, 0x6d, 0x3d, 0x14, 0xb2, 0x4e, 0xbd, 0x23, 0x98, 0x8d, 0x3e,
  0xcc, 0xca, 0x8a, 0x3d, 0xeb, 0xe1, 0x9f, 0xbe, 0xac, 0xc7, 0x89, 0xbe,
  0x70, 0x14, 0x84, 0x3e, 0xa4, 0x60, 0xf4, 0xbd, 0x67, 0xb9, 0x9d, 0xbe,
  0xa4, 0x72, 0x38, 0x3e, 0xb0, 0xb1, 0x99, 0x3d, 0x86, 0x28, 0x50, 0xbe,
  0xbe, 0xbc, 0x89, 0x3e, 0x46, 0xe2, 0xb1, 0xbe, 0x20, 0xf5, 0x42, 0x3e,
  0xbc, 0x36, 0x17, 0x3e, 0x00, 0xe7, 0x35, 0xbd, 0x58, 0xe7, 0xc5, 0xbe,
  0xb0, 0x68, 0xd3, 0x3d, 0xa0, 0xcb, 0xff, 0x3c, 0x80, 0x88, 0x9d, 0x3d,
  0x76, 0xa0, 0xad, 0x3e, 0xae, 0xff, 0x4d, 0xbe, 0xeb, 0x56, 0x59, 0xbe,
  0x4c, 0x28, 0x2a, 0x3e, 0xc0, 0x56, 0x7b, 0x3e, 0x9c, 0x62, 0xcf, 0xbd,
  0x1c, 0x77, 0x40, 0x3f, 0x81, 0x53, 0x08, 0x3f, 0x3a, 0x27, 0x38, 0x3f,
  0xe3, 0x2e, 0x96, 0xbf, 0x61, 0xc1, 0x6d, 0x3f, 0x5c, 0xb1, 0x7c, 0x3d,
  0x86, 0xc1, 0x44, 0x3f, 0x06, 0x41, 0xcd, 0xbf, 0x5f, 0x71, 0x0a, 0x3e,
  0x63, 0xee, 0x3e, 0x3e, 0x29, 0x35, 0xd8, 0xb9, 0x7a, 0xb1, 0x41, 0xbe,
  0xaa, 0x2e, 0x47, 0x3e, 0x67, 0xf0, 0x23, 0xbf, 0x35, 0xeb, 0x02, 0x3f,
  0x42, 0xb7, 0x7c, 0xbf, 0x6e, 0x3b, 0xef, 0x3e, 0x36, 0xa5, 0xd1, 0xbe,
  0x5b, 0x1c, 0xd3, 0xbe, 0xb8, 0x77, 0x30, 0xbf, 0xe2, 0x81, 0xd9, 0xbc,
  0xf3, 0x28, 0x40, 0xbe, 0x47, 0xd0, 0x8e, 0x3e, 0xf6, 0x9e, 0x99, 0xbe,
  0x86, 0x55, 0xb5, 0xbd, 0xc2, 0xf7, 0x0f, 0x3d, 0xc9, 0x38, 0x11, 0xbd,
  0xe3, 0xb6, 0x27, 0xbf, 0x9d, 0x2b, 0x3a, 0x3f, 0xbd, 0x66, 0xf7, 0xbe,
  0x85, 0xe2, 0x17, 0x3f, 0xed, 0x30, 0xbc, 0xbf, 0x29, 0xad, 0x8c, 0xbe,
  0x89, 0x02, 0x4e, 0x3e, 0x61, 0x53, 0x89, 0x3e, 0xc8, 0x6f, 0x1e, 0xbe,
  0xc4, 0xb2, 0xcf, 0x3e, 0x69, 0x81, 0xad, 0xbf, 0x6f, 0x9a, 0x98, 0x3e,
  0xdb, 0x77, 0xb1, 0xbf, 0xef, 0x21, 0x63, 0x3d, 0xde, 0x2e, 0x93, 0xbd,
  0x82, 0x76, 0x34, 0xbe, 0x6e, 0x80, 0x80, 0xbf, 0x63, 0xf2, 0x62, 0xbd,
  0x72, 0x3b, 0x8f, 0x3d, 0x49, 0x47, 0x64, 0xbd, 0x67, 0x97, 0x6e, 0x3d,
  0x06, 0x4c, 0x96, 0xbd, 0xf5, 0xaf, 0x79, 0x3e, 0x1d, 0x7c, 0xa4, 0x3e,
  0x3f, 0x72, 0xaf, 0x3d, 0xdb, 0x4a, 0x08, 0xbe, 0x18, 0x96, 0xbc, 0xbd,
  0x50, 0x20, 0x3d, 0xbe, 0xcd, 0xfa, 0x84, 0xbe, 0x2f, 0xf2, 0x87, 0xbe,
  0x9d, 0x27, 0x02, 0x3d, 0xc3, 0xa4, 0xcc, 0x3d, 0x0f, 0x2e, 0x29, 0x3e,
  0xc3, 0x57, 0x7e, 0x3e, 0x61, 0x51, 0x4e, 0x3e, 0x54, 0xb6, 0xd5, 0x3d,
  0x5e, 0xb5, 0xb1, 0xbe, 0x4c, 0x7b, 0x96, 0xbe, 0xd1, 0x1d, 0x94, 0xbe,
  0xb6, 0xa1, 0x68, 0x3e, 0x0f, 0x44, 0x80, 0xbe, 0x5f, 0xb9, 0xa7, 0xbe,
  0xe5, 0x4c, 0x08, 0x3e, 0xfa, 0x61, 0x9a, 0x3d, 0x1f, 0xeb, 0x87, 0xbe,
  0x54, 0x7b, 0x77, 0x3e, 0x88, 0x4f, 0x6e, 0xbd, 0xe0, 0x7c, 0xee, 0xbe,
  0x30, 0x23, 0xe6, 0x3e, 0x95, 0x01, 0x09, 0xbf, 0x11, 0x4d, 0x6c, 0x3e,
  0x0f, 0xb9, 0xb7, 0xbe, 0xe1, 0x8c, 0xe4, 0x3f, 0xd2, 0x3e, 0x49, 0xbe,
  0x19, 0x34, 0x28, 0x3e, 0x4e, 0x74, 0xb9, 0xbd, 0x7d, 0x9c, 0xbd, 0xbe,
  0x0d, 0x73, 0xe3, 0xbd, 0x10, 0xfa, 0x40, 0xbd, 0x41, 0x33, 0xe9, 0xbc,
  0xe2, 0x7f, 0x45, 0x3f, 0xb0, 0xbf, 0x53, 0x3f, 0x2e, 0x97, 0x6b, 0x3d,
  0x58, 0x20, 0xf3, 0xbe, 0xe4, 0x41, 0xf8, 0x3d, 0xcc, 0x3d, 0x9a, 0xbe,
  0xa4, 0xdc, 0xa6, 0xbe, 0xe1, 0xd8, 0xcb, 0xbe, 0x7a, 0xbc, 0x93, 0xbe,
  0x54, 0x62, 0x6b, 0x3e, 0x40, 0x57, 0x8c, 0xbb, 0x20, 0x50, 0x33, 0xbc,
  0x8c, 0x8f, 0x98, 0x3d, 0xe6, 0x65, 0x2a, 0xbe, 0x74, 0xa8, 0x45, 0x3e,
  0x00, 0x00, 0xb8, 0x3d, 0xa4, 0x14, 0x31, 0xbe, 0xdb, 0x1d, 0x5d, 0xbe,
  0xe8, 0xf1, 0xc0, 0xbd, 0xc1, 0x52, 0x8b, 0xbe, 0x3f, 0x93, 0xbe, 0xbe,
  0x02, 0xf8, 0x7b, 0xbe, 0x73, 0x3e, 0x7d, 0xbe, 0x90, 0xe4, 0x1f, 0x3e,
  0xe7, 0xd3, 0x96, 0xbe, 0x9e, 0xc0, 0xa0, 0xbe, 0xf4, 0x74, 0x9c, 0x3e,
  0x30, 0x12, 0x1b, 0x3d, 0x80, 0x04, 0xbf, 0xbc, 0x28, 0x1d, 0xc6, 0x3e,
  0xc4, 0xbb, 0xc3, 0x3e, 0x9c, 0x70, 0x27, 0xbe, 0xb8, 0x6c, 0x7e, 0x3e,
  0xb7, 0x13, 0xc4, 0xbd, 0xe0, 0x8e, 0xa6, 0xbd, 0xf0, 0x05, 0xa2, 0x3d,
  0xce, 0xbf, 0xb3, 0x3e, 0x2d, 0x2e, 0x80, 0xbe, 0x8b, 0x71, 0xe1, 0x3e,
  0x1f, 0x26, 0x31, 0xbf, 0x5d, 0xc9, 0xcf, 0x3f, 0x92, 0x89, 0xda, 0xbd,
  0x78, 0xdd, 0x21, 0xbe, 0x43, 0xe8, 0x38, 0x3e, 0x81, 0x36, 0x5f, 0xbe,
  0x95, 0x1c, 0x1b, 0xbe, 0xb9, 0xbe, 0xf8, 0x3e, 0xf3, 0xbd, 0xb4, 0x3e,
  0xb6, 0x7d, 0x87, 0x3f, 0x10, 0x27, 0xa8, 0x3d, 0xba, 0xe1, 0xb8, 0xbe,
  0xd5, 0x84, 0x3f, 0xbd, 0x52, 0x83, 0x04, 0xbe, 0x2d, 0xe0, 0x14, 0x3d,
  0x09, 0x5c, 0xfe, 0xbe, 0x71, 0x07, 0x04, 0xbf, 0x0e, 0x19, 0x8d, 0x3e,
  0xa0, 0xac, 0xf3, 0x3c, 0x10, 0x7c, 0x6f, 0x3e, 0x10, 0xd0, 0x98, 0x3e,
  0x6a, 0x84, 0x95, 0x3e, 0xa0, 0x57, 0x90, 0xbe, 0xe8, 0x1b, 0x70, 0x3e,
  0x70, 0x0b, 0x67, 0xbd, 0x60, 0xa6, 0x6b, 0xbc, 0x56, 0xa1, 0x72, 0xbe,
  0x98, 0xd9, 0x58, 0x3d, 0x87, 0xa4, 0x87, 0xbe, 0x2d, 0x21, 0x41, 0xbe,
  0x28, 0x1d, 0x3d, 0x3d, 0xac, 0xce, 0xa0, 0xbd, 0xd0, 0x48, 0x82, 0x3e,
  0xce, 0xe3, 0x85, 0x3e, 0xad, 0xaf, 0x8a, 0xbe, 0x5b, 0x11, 0x93, 0xbe,
  0xa4, 0x70, 0xb8, 0xbe, 0x7f, 0xde, 0x4e, 0xbe, 0x58, 0x2e, 0x74, 0x3e,
  0x44, 0x6a, 0x33, 0xbe, 0x55, 0x14, 0xb8, 0xbe, 0x80, 0x9f, 0x97, 0x3e,
  0xd4, 0x6c, 0x8d, 0x3e, 0x38, 0x97, 0x9b, 0xbd, 0xd0, 0x0b, 0x95, 0x3d,
  0x6c, 0x6a, 0x4d, 0x3e, 0xc8, 0xd0, 0x53, 0xbd, 0x54, 0xc1, 0xa6, 0xbd,
  0xb3, 0xb8, 0xc5, 0xbe, 0xc4, 0xe5, 0xb9, 0x3d, 0xd6, 0xb8, 0x7d, 0xbe,
  0x7c, 0x45, 0x02, 0xbe, 0x4f, 0x8c, 0x63, 0xbe, 0x80, 0x9e, 0x6d, 0x3b,
  0x28, 0x2d, 0x09, 0x3e, 0xf8, 0x02, 0xb7, 0x3e, 0x90, 0xb9, 0xf5, 0x3c,
  0xec, 0x48, 0xc4, 0xbe, 0x5c, 0x6e, 0xbe, 0x3d, 0xe8, 0xd7, 0xe3, 0x3d,
  0x43, 0xbd, 0xc2, 0xbe, 0x5c, 0xaa, 0x96, 0x3d, 0x84, 0x98, 0xf7, 0xbd,
  0x88, 0x58, 0xb4, 0x3d, 0x92, 0x53, 0x92, 0xbe, 0x68, 0xac, 0x71, 0x3d,
  0x2a, 0xa5, 0x97, 0x3e, 0xbc, 0xb7, 0x89, 0xbe, 0xce, 0x76, 0x4a, 0xbe,
  0x35, 0xec, 0x7e, 0xbe, 0xe7, 0xcc, 0x77, 0xbe, 0x6c, 0x29, 0x10, 0x3e,
  0x10, 0x48, 0x83, 0xbd, 0xa9, 0x94, 0x6e, 0xbe, 0x0e, 0x89, 0x9e, 0xbe,
  0x1c, 0xe7, 0x2f, 0x3e, 0x80, 0xbd, 0xe3, 0xbb, 0x2c, 0x04, 0xc7, 0xbd,
  0x5b, 0x48, 0x56, 0xbe, 0xb4, 0x12, 0x2a, 0x3e, 0xbc, 0xa9, 0x3a, 0x3e,
  0x12, 0x7b, 0x8f, 0xbe, 0x65, 0x83, 0x11, 0xbe, 0x36, 0x9d, 0xb9, 0x3e,
  0xe0, 0x7f, 0x35, 0x3e, 0x88, 0xed, 0x5f, 0x3e, 0x54, 0xe9, 0xbf, 0xbd,
  0x7c, 0x52, 0x07, 0xbe, 0x89, 0x2d, 0x56, 0xbe, 0x38, 0x38, 0xb6, 0x3e,
  0x80, 0xe9, 0x75, 0xbd, 0x00, 0x7a, 0xcd, 0x3b, 0x34, 0x25, 0xa5, 0xbd,
  0x1a, 0x94, 0x7f, 0xbe, 0xa0, 0x12, 0x17, 0x3e, 0x60, 0x5d, 0x35, 0xbc,
  0x50, 0xf8, 0xf3, 0xbc, 0x34, 0xb6, 0x5c, 0x3e, 0x07, 0xbd, 0x2d, 0xbe,
  0x6e, 0xd2, 0xa5, 0xbe, 0xb1, 0x32, 0x9f, 0xbe, 0xb3, 0x8b, 0x6d, 0xbe,
  0x10, 0xfc, 0x63, 0x3e, 0x7c, 0x2f, 0x01, 0x3e, 0xe8, 0x13, 0x15, 0xbd,
  0x44, 0x1e, 0x19, 0x3e, 0x10, 0xe5, 0x65, 0x3e, 0xc7, 0x8d, 0x3e, 0xbe,
  0xa8, 0x22, 0x24, 0x3e, 0xc0, 0xbd, 0x9a, 0x3e, 0x5a, 0x94, 0x8c, 0x3e,
  0xbc, 0x99, 0xbf, 0x3e, 0x0a, 0x33, 0x85, 0x3e, 0xce, 0x8e, 0x85, 0xbe,
  0x6a, 0xfd, 0xff, 0xff, 0x04, 0x00, 0x00, 0x00, 0x40, 0x00, 0x00, 0x00,
  0x00, 0x00, 0x00, 0x00, 0x00, 0x00, 0x00, 0x00, 0x00, 0x00, 0x00, 0x00,
  0x00, 0x00, 0x00, 0x00, 0x47, 0xfe, 0x64, 0xbc, 0x00, 0x00, 0x00, 0x00,
  0x96, 0x93, 0x01, 0xbe, 0xf7, 0xc8, 0x7c, 0xbd, 0xa3, 0x61, 0x23, 0xbd,
  0xc3, 0x1c, 0x8e, 0xbd, 0x00, 0x00, 0x00, 0x00, 0x9b, 0x04, 0x79, 0xbd,
  0x00, 0x00, 0x00, 0x00, 0x00, 0x00, 0x00, 0x00, 0x00, 0x00, 0x00, 0x00,
  0x00, 0x00, 0x00, 0x00, 0xb6, 0xfd, 0xff, 0xff, 0x04, 0x00, 0x00, 0x00,
  0x20, 0x00, 0x00, 0x00, 0x56, 0x09, 0xb6, 0xbd, 0x78, 0xde, 0x55, 0x3e,
  0x30, 0x50, 0xa3, 0x3e, 0xf7, 0xed, 0xf3, 0xbc, 0xe4, 0x2d, 0x22, 0x3f,
  0xe1, 0x75, 0xa2, 0xbe, 0x82, 0x37, 0xf9, 0x3e, 0x75, 0x48, 0x1d, 0xbe,
  0xe2, 0xfd, 0xff, 0xff, 0x04, 0x00, 0x00, 0x00, 0x04, 0x00, 0x00, 0x00,
  0x3f, 0x89, 0x61, 0x3d, 0xf2, 0xfd, 0xff, 0xff, 0x04, 0x00, 0x00, 0x00,
  0x00, 0x02, 0x00, 0x00, 0x7c, 0x3b, 0xdb, 0x3e, 0x40, 0x9b, 0x03, 0xbe,
  0xf8, 0x0d, 0x87, 0x3e, 0xd0, 0x6d, 0x67, 0x3e, 0x68, 0xb8, 0x1a, 0x3e,
  0x64, 0x68, 0xec, 0xbe, 0xca, 0x5b, 0xd3, 0x3e, 0xc2, 0x43, 0xb8, 0xbd,
  0x7f, 0x2a, 0xd3, 0x3e, 0x1e, 0x9c, 0xeb, 0xbe, 0x3c, 0xf6, 0xc5, 0x3e,
  0xd7, 0x1c, 0x95, 0xbe, 0x24, 0x2b, 0xcb, 0x3e, 0x60, 0x4d, 0x3a, 0x3d,
  0xa0, 0x29, 0xf7, 0x3d, 0x20, 0x9c, 0xf3, 0x3d, 0x28, 0x50, 0xef, 0x3e,
  0x14, 0xbf, 0x91, 0xbe, 0x00, 0x70, 0x80, 0xbd, 0x30, 0x0f, 0xe6, 0xbe,
  0x9d, 0x8d, 0x1f, 0xbc, 0x88, 0x3e, 0xdb, 0xbe, 0x33, 0x73, 0x63, 0x3e,
  0x13, 0xf6, 0x84, 0x3f, 0xe7, 0x53, 0xae, 0x3d, 0x15, 0x69, 0x8e, 0xbd,
  0xc0, 0x41, 0x95, 0x3d, 0x60, 0xbc, 0x96, 0xbe, 0x70, 0x7e, 0xc8, 0x3e,
  0x20, 0x13, 0x53, 0x3d, 0xb8, 0x86, 0x84, 0xbe, 0xe0, 0x3a, 0x4e, 0x3d,
  0x00, 0x23, 0xfb, 0x3d, 0x3c, 0x0b, 0xe0, 0xbe, 0x80, 0xa0, 0xc9, 0x3c,
  0xdc, 0x0b, 0xc3, 0xbe, 0xcb, 0x34, 0x10, 0xbe, 0xe8, 0x1f, 0x59, 0xbe,
  0xd9, 0x55, 0x1f, 0x3c, 0xa9, 0x81, 0xb4, 0xbe, 0x80, 0xba, 0x87, 0xbe,
  0xaf, 0x00, 0xca, 0x3e, 0xc0, 0x9d, 0x4f, 0x3e, 0x88, 0x3f, 0x71, 0x3f,
  0x14, 0x10, 0xfd, 0xbe, 0x38, 0xb4, 0x2f, 0xbe, 0x80, 0x42, 0x11, 0xbc,
  0x1c, 0x57, 0x80, 0xbe, 0x10, 0x1f, 0xd5, 0xbd, 0xa0, 0x4d, 0xfe, 0xbe,
  0xe4, 0xe9, 0xc9, 0x3e, 0x70, 0xf7, 0xe8, 0x3d, 0x81, 0x74, 0x93, 0x3d,
  0xf8, 0xc9, 0xa0, 0xbe, 0xb8, 0x28, 0xfd, 0xbe, 0x56, 0x66, 0xe4, 0xbb,
  0x1a, 0xdf, 0xa7, 0x3d, 0x2c, 0xfc, 0xa5, 0xbe, 0x5c, 0x52, 0x98, 0xbe,
  0x0c, 0xe7, 0x9e, 0xbe, 0xf8, 0x7b, 0x97, 0x3e, 0x88, 0xff, 0x17, 0xbe,
  0xd8, 0x70, 0x2a, 0x3e, 0x28, 0xe7, 0xec, 0x3e, 0x30, 0x14, 0x7d, 0x3e,
  0x98, 0xea, 0x29, 0x3e, 0x10, 0x3c, 0x9d, 0xbd, 0x6c, 0x5e, 0xdf, 0x3e,
  0xa8, 0xf6, 0xdd, 0x3e, 0xc0, 0x91, 0xb6, 0x3e, 0x14, 0x30, 0xc1, 0xbd,
  0x2b, 0x27, 0x2a, 0xbf, 0xb2, 0xf1, 0xa6, 0xbd, 0xee, 0xac, 0xd0, 0x3f,
  0x68, 0xb6, 0x0d, 0x3e, 0x67, 0xdc, 0xbe, 0x3f, 0xe0, 0xf9, 0xb1, 0x3d,
  0xb8, 0x4e, 0xab, 0xbe, 0xf0, 0x11, 0x0d, 0x3e, 0x30, 0xa6, 0xd8, 0xbe,
  0xd0, 0xa3, 0xb5, 0x3e, 0xbc, 0xbb, 0xa5, 0xbe, 0xd8, 0x3d, 0x3f, 0x3e,
  0x14, 0x9d, 0x89, 0x3e, 0xca, 0xa2, 0xd5, 0xbe, 0x80, 0x5f, 0xab, 0xbd,
  0x9a, 0xd5, 0x3e, 0xbd, 0x39, 0x4f, 0x29, 0xbf, 0x45, 0x4f, 0x4a, 0x3e,
  0xda, 0x74, 0x7c, 0x3e, 0x80, 0x25, 0x63, 0x3e, 0x2c, 0x12, 0xdf, 0xbd,
  0x38, 0x42, 0x45, 0x3e, 0x60, 0x6c, 0x17, 0xbe, 0xf4, 0xc1, 0x8a, 0x3e,
  0xf8, 0x2b, 0xa6, 0x3e, 0x00, 0xdd, 0xa4, 0x3e, 0x40, 0x0e, 0x39, 0x3d,
  0xc4, 0x9c, 0xbf, 0xbe, 0xa0, 0xa8, 0xc6, 0x3e, 0x79, 0x22, 0x8e, 0x3e,
  0x68, 0x53, 0xfb, 0xbe, 0xd4, 0xb4, 0x78, 0xbd, 0xed, 0x64, 0x01, 0xbf,
  0x1d, 0x22, 0x9a, 0xbe, 0x13, 0x1d, 0x8c, 0x3f, 0x38, 0x3f, 0x21, 0x3e,
  0x39, 0xcb, 0x35, 0x3f, 0x54, 0x7d, 0xbf, 0xbe, 0xb0, 0xa6, 0xe0, 0xbd,
  0xa0, 0x16, 0x1d, 0x3e, 0xe0, 0x0d, 0xc5, 0x3e, 0x60, 0x2c, 0xd7, 0xbd,
  0xf0, 0xd8, 0x0e, 0x3e, 0x00, 0x68, 0x6e, 0x3c, 0x14, 0xb0, 0xc4, 0xbe,
  0x0d, 0x1a, 0xb9, 0xbe, 0xa0, 0x34, 0x84, 0x3d, 0xf7, 0xe9, 0xab, 0x3d,
  0xf2, 0xc7, 0x8d, 0xbe, 0xc5, 0x24, 0x92, 0x3e, 0xee, 0x46, 0x28, 0xbe,
  0xec, 0xae, 0xf8, 0xbe, 0x3b, 0x9e, 0x76, 0x3e, 0x40, 0x06, 0x80, 0x3c,
  0xe8, 0x26, 0x73, 0x3e, 0xa0, 0xaa, 0x50, 0xbe, 0x00, 0xa3, 0x7c, 0x3e,
  0x00, 0x00, 0x06, 0x00, 0x08, 0x00, 0x04, 0x00, 0x06, 0x00, 0x00, 0x00,
  0x04, 0x00, 0x00, 0x00, 0x20, 0x00, 0x00, 0x00, 0x3e, 0x19, 0x4c, 0x3f,
  0xcd, 0x73, 0xa1, 0x3f, 0x3e, 0x18, 0x0e, 0xbf, 0x5b, 0x1c, 0x3e, 0x3f,
  0x7e, 0x90, 0x66, 0xbf, 0x59, 0x29, 0xb0, 0x3e, 0x44, 0x72, 0xab, 0xbf,
  0xe1, 0xa7, 0x76, 0x3d, 0x94, 0xfa, 0xff, 0xff, 0x98, 0xfa, 0xff, 0xff,
  0x0f, 0x00, 0x00, 0x00, 0x4d, 0x4c, 0x49, 0x52, 0x20, 0x43, 0x6f, 0x6e,
  0x76, 0x65, 0x72, 0x74, 0x65, 0x64, 0x2e, 0x00, 0x01, 0x00, 0x00, 0x00,
  0x14, 0x00, 0x00, 0x00, 0x00, 0x00, 0x0e, 0x00, 0x18, 0x00, 0x14, 0x00,
  0x10, 0x00, 0x0c, 0x00, 0x08, 0x00, 0x04, 0x00, 0x0e, 0x00, 0x00, 0x00,
  0x14, 0x00, 0x00, 0x00, 0x1c, 0x00, 0x00, 0x00, 0x08, 0x01, 0x00, 0x00,
  0x0c, 0x01, 0x00, 0x00, 0x10, 0x01, 0x00, 0x00, 0x04, 0x00, 0x00, 0x00,
  0x6d, 0x61, 0x69, 0x6e, 0x00, 0x00, 0x00, 0x00, 0x04, 0x00, 0x00, 0x00,
  0xb0, 0x00, 0x00, 0x00, 0x68, 0x00, 0x00, 0x00, 0x34, 0x00, 0x00, 0x00,
  0x10, 0x00, 0x00, 0x00, 0x00, 0x00, 0x0a, 0x00, 0x10, 0x00, 0x0c, 0x00,
  0x08, 0x00, 0x04, 0x00, 0x0a, 0x00, 0x00, 0x00, 0x0c, 0x00, 0x00, 0x00,
  0x10, 0x00, 0x00, 0x00, 0x01, 0x00, 0x00, 0x00, 0x01, 0x00, 0x00, 0x00,
  0x0a, 0x00, 0x00, 0x00, 0x01, 0x00, 0x00, 0x00, 0x09, 0x00, 0x00, 0x00,
  0x9a, 0xff, 0xff, 0xff, 0x10, 0x00, 0x00, 0x00, 0x00, 0x00, 0x00, 0x08,
  0x0c, 0x00, 0x00, 0x00, 0x10, 0x00, 0x00, 0x00, 0x40, 0xfb, 0xff, 0xff,
  0x01, 0x00, 0x00, 0x00, 0x09, 0x00, 0x00, 0x00, 0x03, 0x00, 0x00, 0x00,
  0x08, 0x00, 0x00, 0x00, 0x01, 0x00, 0x00, 0x00, 0x03, 0x00, 0x00, 0x00,
  0xca, 0xff, 0xff, 0xff, 0x10, 0x00, 0x00, 0x00, 0x00, 0x00, 0x00, 0x08,
  0x10, 0x00, 0x00, 0x00, 0x14, 0x00, 0x00, 0x00, 0xba, 0xff, 0xff, 0xff,
  0x00, 0x00, 0x00, 0x01, 0x01, 0x00, 0x00, 0x00, 0x08, 0x00, 0x00, 0x00,
  0x03, 0x00, 0x00, 0x00, 0x07, 0x00, 0x00, 0x00, 0x02, 0x00, 0x00, 0x00,
  0x04, 0x00, 0x00, 0x00, 0x00, 0x00, 0x0e, 0x00, 0x16, 0x00, 0x00, 0x00,
  0x10, 0x00, 0x0c, 0x00, 0x0b, 0x00, 0x04, 0x00, 0x0e, 0x00, 0x00, 0x00,
  0x18, 0x00, 0x00, 0x00, 0x00, 0x00, 0x00, 0x08, 0x18, 0x00, 0x00, 0x00,
  0x1c, 0x00, 0x00, 0x00, 0x00, 0x00, 0x06, 0x00, 0x08, 0x00, 0x07, 0x00,
  0x06, 0x00, 0x00, 0x00, 0x00, 0x00, 0x00, 0x01, 0x01, 0x00, 0x00, 0x00,
  0x07, 0x00, 0x00, 0x00, 0x03, 0x00, 0x00, 0x00, 0x00, 0x00, 0x00, 0x00,
  0x06, 0x00, 0x00, 0x00, 0x05, 0x00, 0x00, 0x00, 0x01, 0x00, 0x00, 0x00,
  0x0a, 0x00, 0x00, 0x00, 0x01, 0x00, 0x00, 0x00, 0x00, 0x00, 0x00, 0x00,
  0x0b, 0x00, 0x00, 0x00, 0xe8, 0x03, 0x00, 0x00, 0x90, 0x03, 0x00, 0x00,
  0x38, 0x03, 0x00, 0x00, 0xfc, 0x02, 0x00, 0x00, 0xc0, 0x02, 0x00, 0x00,
  0x68, 0x02, 0x00, 0x00, 0x18, 0x02, 0x00, 0x00, 0x7c, 0x01, 0x00, 0x00,
  0xe0, 0x00, 0x00, 0x00, 0x60, 0x00, 0x00, 0x00, 0x04, 0x00, 0x00, 0x00,
  0x5a, 0xfc, 0xff, 0xff, 0x00, 0x00, 0x00, 0x01, 0x14, 0x00, 0x00, 0x00,
  0x1c, 0x00, 0x00, 0x00, 0x1c, 0x00, 0x00, 0x00, 0x0b, 0x00, 0x00, 0x00,
  0x34, 0x00, 0x00, 0x00, 0x02, 0x00, 0x00, 0x00, 0xff, 0xff, 0xff, 0xff,
  0x01, 0x00, 0x00, 0x00, 0x44, 0xfc, 0xff, 0xff, 0x1b, 0x00, 0x00, 0x00,
  0x53, 0x74, 0x61, 0x74, 0x65, 0x66, 0x75, 0x6c, 0x50, 0x61, 0x72, 0x74,
  0x69, 0x74, 0x69, 0x6f, 0x6e, 0x65, 0x64, 0x43, 0x61, 0x6c, 0x6c, 0x5f,
  0x31, 0x3a, 0x30, 0x00, 0x02, 0x00, 0x00, 0x00, 0x01, 0x00, 0x00, 0x00,
  0x01, 0x00, 0x00, 0x00, 0xb2, 0xfc, 0xff, 0xff, 0x00, 0x00, 0x00, 0x01,
  0x14, 0x00, 0x00, 0x00, 0x1c, 0x00, 0x00, 0x00, 0x1c, 0x00, 0x00, 0x00,
  0x0a, 0x00, 0x00, 0x00, 0x58, 0x00, 0x00, 0x00, 0x02, 0x00, 0x00, 0x00,
  0xff, 0xff, 0xff, 0xff, 0x01, 0x00, 0x00, 0x00, 0x9c, 0xfc, 0xff, 0xff,
  0x3c, 0x00, 0x00, 0x00, 0x73, 0x65, 0x71, 0x75, 0x65, 0x6e, 0x74, 0x69,
  0x61, 0x6c, 0x5f, 0x31, 0x5f, 0x31, 0x2f, 0x64, 0x65, 0x6e, 0x73, 0x65,
  0x5f, 0x35, 0x5f, 0x31, 0x2f, 0x4d, 0x61, 0x74, 0x4d, 0x75, 0x6c, 0x3b,
  0x73, 0x65, 0x71, 0x75, 0x65, 0x6e, 0x74, 0x69, 0x61, 0x6c, 0x5f, 0x31,
  0x5f, 0x31, 0x2f, 0x64, 0x65, 0x6e, 0x73, 0x65, 0x5f, 0x35, 0x5f, 0x31,
  0x2f, 0x41, 0x64, 0x64, 0x00, 0x00, 0x00, 0x00, 0x02, 0x00, 0x00, 0x00,
  0x01, 0x00, 0x00, 0x00, 0x01, 0x00, 0x00, 0x00, 0x2e, 0xfd, 0xff, 0xff,
  0x00, 0x00, 0x00, 0x01, 0x14, 0x00, 0x00, 0x00, 0x1c, 0x00, 0x00, 0x00,
  0x1c, 0x00, 0x00, 0x00, 0x09, 0x00, 0x00, 0x00, 0x74, 0x00, 0x00, 0x00,
  0x02, 0x00, 0x00, 0x00, 0xff, 0xff, 0xff, 0xff, 0x08, 0x00, 0x00, 0x00,
  0x18, 0xfd, 0xff, 0xff, 0x5a, 0x00, 0x00, 0x00, 0x73, 0x65, 0x71, 0x75,
  0x65, 0x6e, 0x74, 0x69, 0x61, 0x6c, 0x5f, 0x31, 0x5f, 0x31, 0x2f, 0x64,
  0x65, 0x6e, 0x73, 0x65, 0x5f, 0x34, 0x5f, 0x31, 0x2f, 0x4d, 0x61, 0x74,
  0x4d, 0x75, 0x6c, 0x3b, 0x73, 0x65, 0x71, 0x75, 0x65, 0x6e, 0x74, 0x69,
  0x61, 0x6c, 0x5f, 0x31, 0x5f, 0x31, 0x2f, 0x64, 0x65, 0x6e, 0x73, 0x65,
  0x5f, 0x34, 0x5f, 0x31, 0x2f, 0x52, 0x65, 0x6c, 0x75, 0x3b, 0x73, 0x65,
  0x71, 0x75, 0x65, 0x6e, 0x74, 0x69, 0x61, 0x6c, 0x5f, 0x31, 0x5f, 0x31,
  0x2f, 0x64, 0x65, 0x6e, 0x73, 0x65, 0x5f, 0x34, 0x5f, 0x31, 0x2f, 0x41,
  0x64, 0x64, 0x00, 0x00, 0x02, 0x00, 0x00, 0x00, 0x01, 0x00, 0x00, 0x00,
  0x08, 0x00, 0x00, 0x00, 0xc6, 0xfd, 0xff, 0xff, 0x00, 0x00, 0x00, 0x01,
  0x14, 0x00, 0x00, 0x00, 0x1c, 0x00, 0x00, 0x00, 0x1c, 0x00, 0x00, 0x00,
  0x08, 0x00, 0x00, 0x00, 0x74, 0x00, 0x00, 0x00, 0x02, 0x00, 0x00, 0x00,
  0xff, 0xff, 0xff, 0xff, 0x10, 0x00, 0x00, 0x00, 0xb0, 0xfd, 0xff, 0xff,
  0x5a, 0x00, 0x00, 0x00, 0x73, 0x65, 0x71, 0x75, 0x65, 0x6e, 0x74, 0x69,
  0x61, 0x6c, 0x5f, 0x31, 0x5f, 0x31, 0x2f, 0x64, 0x65, 0x6e, 0x73, 0x65,
  0x5f, 0x33, 0x5f, 0x31, 0x2f, 0x4d, 0x61, 0x74, 0x4d, 0x75, 0x6c, 0x3b,
  0x73, 0x65, 0x71, 0x75, 0x65, 0x6e, 0x74, 0x69, 0x61, 0x6c, 0x5f, 0x31,
  0x5f, 0x31, 0x2f, 0x64, 0x65, 0x6e, 0x73, 0x65, 0x5f, 0x33, 0x5f, 0x31,
  0x2f, 0x52, 0x65, 0x6c, 0x75, 0x3b, 0x73, 0x65, 0x71, 0x75, 0x65, 0x6e,
  0x74, 0x69, 0x61, 0x6c, 0x5f, 0x31, 0x5f, 0x31, 0x2f, 0x64, 0x65, 0x6e,
  0x73, 0x65, 0x5f, 0x33, 0x5f, 0x31, 0x2f, 0x41, 0x64, 0x64, 0x00, 0x00,
  0x02, 0x00, 0x00, 0x00, 0x01, 0x00, 0x00, 0x00, 0x10, 0x00, 0x00, 0x00,
  0xb2, 0xfe, 0xff, 0xff, 0x00, 0x00, 0x00, 0x01, 0x10, 0x00, 0x00, 0x00,
  0x10, 0x00, 0x00, 0x00, 0x07, 0x00, 0x00, 0x00, 0x2c, 0x00, 0x00, 0x00,
  0x38, 0xfe, 0xff, 0xff, 0x1f, 0x00, 0x00, 0x00, 0x73, 0x65, 0x71, 0x75,
  0x65, 0x6e, 0x74, 0x69, 0x61, 0x6c, 0x5f, 0x31, 0x5f, 0x31, 0x2f, 0x64,
  0x65, 0x6e, 0x73, 0x65, 0x5f, 0x33, 0x5f, 0x31, 0x2f, 0x4d, 0x61, 0x74,
  0x4d, 0x75, 0x6c, 0x00, 0x02, 0x00, 0x00, 0x00, 0x10, 0x00, 0x00, 0x00,
  0x18, 0x00, 0x00, 0x00, 0xfe, 0xfe, 0xff, 0xff, 0x00, 0x00, 0x00, 0x01,
  0x10, 0x00, 0x00, 0x00, 0x10, 0x00, 0x00, 0x00, 0x06, 0x00, 0x00, 0x00,
  0x38, 0x00, 0x00, 0x00, 0x84, 0xfe, 0xff, 0xff, 0x2b, 0x00, 0x00, 0x00,
  0x73, 0x65, 0x71, 0x75, 0x65, 0x6e, 0x74, 0x69, 0x61, 0x6c, 0x5f, 0x31,
  0x5f, 0x31, 0x2f, 0x64, 0x65, 0x6e, 0x73, 0x65, 0x5f, 0x33, 0x5f, 0x31,
  0x2f, 0x41, 0x64, 0x64, 0x2f, 0x52, 0x65, 0x61, 0x64, 0x56, 0x61, 0x72,
  0x69, 0x61, 0x62, 0x6c, 0x65, 0x4f, 0x70, 0x00, 0x01, 0x00, 0x00, 0x00,
  0x10, 0x00, 0x00, 0x00, 0x52, 0xff, 0xff, 0xff, 0x00, 0x00, 0x00, 0x01,
  0x10, 0x00, 0x00, 0x00, 0x10, 0x00, 0x00, 0x00, 0x05, 0x00, 0x00, 0x00,
  0x1c, 0x00, 0x00, 0x00, 0xd8, 0xfe, 0xff, 0xff, 0x0f, 0x00, 0x00, 0x00,
  0x61, 0x72, 0x69, 0x74, 0x68, 0x2e, 0x63, 0x6f, 0x6e, 0x73, 0x74, 0x61,
  0x6e, 0x74, 0x33, 0x00, 0x01, 0x00, 0x00, 0x00, 0x08, 0x00, 0x00, 0x00,
  0x8a, 0xff, 0xff, 0xff, 0x00, 0x00, 0x00, 0x01, 0x10, 0x00, 0x00, 0x00,
  0x10, 0x00, 0x00, 0x00, 0x04, 0x00, 0x00, 0x00, 0x1c, 0x00, 0x00, 0x00,
  0x10, 0xff, 0xff, 0xff, 0x0f, 0x00, 0x00, 0x00, 0x61, 0x72, 0x69, 0x74,
  0x68, 0x2e, 0x63, 0x6f, 0x6e, 0x73, 0x74, 0x61, 0x6e, 0x74, 0x32, 0x00,
  0x01, 0x00, 0x00, 0x00, 0x01, 0x00, 0x00, 0x00, 0xc2, 0xff, 0xff, 0xff,
  0x00, 0x00, 0x00, 0x01, 0x10, 0x00, 0x00, 0x00, 0x10, 0x00, 0x00, 0x00,
  0x03, 0x00, 0x00, 0x00, 0x1c, 0x00, 0x00, 0x00, 0x48, 0xff, 0xff, 0xff,
  0x0f, 0x00, 0x00, 0x00, 0x61, 0x72, 0x69, 0x74, 0x68, 0x2e, 0x63, 0x6f,
  0x6e, 0x73, 0x74, 0x61, 0x6e, 0x74, 0x31, 0x00, 0x02, 0x00, 0x00, 0x00,
  0x08, 0x00, 0x00, 0x00, 0x10, 0x00, 0x00, 0x00, 0x00, 0x00, 0x16, 0x00,
  0x18, 0x00, 0x14, 0x00, 0x00, 0x00, 0x10, 0x00, 0x0c, 0x00, 0x08, 0x00,
  0x00, 0x00, 0x00, 0x00, 0x00, 0x00, 0x07, 0x00, 0x16, 0x00, 0x00, 0x00,
  0x00, 0x00, 0x00, 0x01, 0x10, 0x00, 0x00, 0x00, 0x10, 0x00, 0x00, 0x00,
  0x02, 0x00, 0x00, 0x00, 0x1c, 0x00, 0x00, 0x00, 0x9c, 0xff, 0xff, 0xff,
  0x0e, 0x00, 0x00, 0x00, 0x61, 0x72, 0x69, 0x74, 0x68, 0x2e, 0x63, 0x6f,
  0x6e, 0x73, 0x74, 0x61, 0x6e, 0x74, 0x00, 0x00, 0x02, 0x00, 0x00, 0x00,
  0x01, 0x00, 0x00, 0x00, 0x08, 0x00, 0x00, 0x00, 0x00, 0x00, 0x16, 0x00,
  0x1c, 0x00, 0x18, 0x00, 0x00, 0x00, 0x14, 0x00, 0x10, 0x00, 0x0c, 0x00,
  0x00, 0x00, 0x00, 0x00, 0x08, 0x00, 0x07, 0x00, 0x16, 0x00, 0x00, 0x00,
  0x00, 0x00, 0x00, 0x01, 0x14, 0x00, 0x00, 0x00, 0x20, 0x00, 0x00, 0x00,
  0x20, 0x00, 0x00, 0x00, 0x01, 0x00, 0x00, 0x00, 0x3c, 0x00, 0x00, 0x00,
  0x02, 0x00, 0x00, 0x00, 0xff, 0xff, 0xff, 0xff, 0x18, 0x00, 0x00, 0x00,
  0x04, 0x00, 0x04, 0x00, 0x04, 0x00, 0x00, 0x00, 0x1f, 0x00, 0x00, 0x00,
  0x73, 0x65, 0x72, 0x76, 0x69, 0x6e, 0x67, 0x5f, 0x64, 0x65, 0x66, 0x61,
  0x75, 0x6c, 0x74, 0x5f, 0x69, 0x6e, 0x70, 0x75, 0x74, 0x5f, 0x6c, 0x61,
  0x79, 0x65, 0x72, 0x5f, 0x31, 0x3a, 0x30, 0x00, 0x02, 0x00, 0x00, 0x00,
  0x01, 0x00, 0x00, 0x00, 0x18, 0x00, 0x00, 0x00, 0x02, 0x00, 0x00, 0x00,
  0x20, 0x00, 0x00, 0x00, 0x04, 0x00, 0x00, 0x00, 0xf4, 0xff, 0xff, 0xff,
  0x0e, 0x00, 0x00, 0x00, 0x00, 0x00, 0x00, 0x0e, 0x0c, 0x00, 0x0c, 0x00,
  0x0b, 0x00, 0x00, 0x00, 0x00, 0x00, 0x04, 0x00, 0x0c, 0x00, 0x00, 0x00,
  0x09, 0x00, 0x00, 0x00, 0x00, 0x00, 0x00, 0x09
};


#endif MODEL_APENA_H